TRT-100300-EntropyCalibration2
images: 3c008912
/model.0/conv/Conv_output_0: 3e6c71c3
/model.0/act/Sigmoid_output_0: 3c010a14
/model.0/act/Mul_output_0: 3dc41550
/model.1/conv/Conv_output_0: 3f034b4f
/model.1/act/Sigmoid_output_0: 3c010a14
/model.1/act/Mul_output_0: 3eb8133d
/model.2/cv1/conv/Conv_output_0: 3f05949c
/model.2/cv1/act/Sigmoid_output_0: 3c010a14
/model.2/cv1/act/Mul_output_0: 3e1a1297
/model.2/Split_output_0: 3e924d32
/model.2/Split_output_1: 3e1a1297
/model.2/m.0/cv1/conv/Conv_output_0: 3de0b48c
/model.2/m.0/cv1/act/Sigmoid_output_0: 3bfbb743
/model.2/m.0/cv1/act/Mul_output_0: 3c999420
/model.2/m.0/cv2/conv/Conv_output_0: 3e810ef0
/model.2/m.0/cv2/act/Sigmoid_output_0: 3c010a14
/model.2/m.0/cv2/act/Mul_output_0: 3e10e3a8
/model.2/m.0/Add_output_0: 3e808863
/model.2/Concat_output_0: 3e1a1297
/model.2/cv2/conv/Conv_output_0: 3e919d0a
/model.2/cv2/act/Sigmoid_output_0: 3c010a14
/model.2/cv2/act/Mul_output_0: 3d97a9be
/model.3/conv/Conv_output_0: 3daa770c
/model.3/act/Sigmoid_output_0: 3c00b0f4
/model.3/act/Mul_output_0: 3d287259
/model.4/cv1/conv/Conv_output_0: 3da23508
/model.4/cv1/act/Sigmoid_output_0: 3c001468
/model.4/cv1/act/Mul_output_0: 3d11abf4
/model.4/Split_output_0: 3d11abf4
/model.4/Split_output_1: 3cbffb94
/model.4/m.0/cv1/conv/Conv_output_0: 3d18fcb2
/model.4/m.0/cv1/act/Sigmoid_output_0: 3bff54c5
/model.4/m.0/cv1/act/Mul_output_0: 3cc19a0f
/model.4/m.0/cv2/conv/Conv_output_0: 3d6afb5e
/model.4/m.0/cv2/act/Sigmoid_output_0: 3c005acf
/model.4/m.0/cv2/act/Mul_output_0: 3d426a6b
/model.4/m.0/Add_output_0: 3d8dc98d
/model.4/Concat_output_0: 3d259788
/model.4/cv2/conv/Conv_output_0: 3d96e8d3
/model.4/cv2/act/Sigmoid_output_0: 3c001202
/model.4/cv2/act/Mul_output_0: 3c7fe5e2
/model.5/conv/Conv_output_0: 3d5747d5
/model.5/act/Sigmoid_output_0: 3c010f73
/model.5/act/Mul_output_0: 3cc364b2
/model.6/cv1/conv/Conv_output_0: 3de13c4c
/model.6/cv1/act/Sigmoid_output_0: 3c053837
/model.6/cv1/act/Mul_output_0: 3cd3e499
/model.6/Split_output_0: 3cd3e499
/model.6/Split_output_1: 3cb12651
/model.6/m.0/cv1/conv/Conv_output_0: 3d209dcd
/model.6/m.0/cv2/conv/Conv_output_0: 3d6471ca
/model.6/m.0/cv1/act/Sigmoid_output_0: 3c000ad3
/model.6/m.0/cv2/act/Sigmoid_output_0: 3c0980ab
/model.6/m.0/cv1/act/Mul_output_0: 3cd339aa
/model.6/m.0/cv2/act/Mul_output_0: 3cc17100
/model.6/m.0/m/m.0/cv1/conv/Conv_output_0: 3d7964dd
/model.6/m.0/m/m.0/cv1/act/Sigmoid_output_0: 3c00e5d8
/model.6/m.0/m/m.0/cv1/act/Mul_output_0: 3cc2e89b
/model.6/m.0/m/m.0/cv2/conv/Conv_output_0: 3d89c0a4
/model.6/m.0/m/m.0/cv2/act/Sigmoid_output_0: 3c06c15c
/model.6/m.0/m/m.0/cv2/act/Mul_output_0: 3d026f8b
/model.6/m.0/m/m.0/Add_output_0: 3d8dcdaa
/model.6/m.0/m/m.1/cv1/conv/Conv_output_0: 3d880004
/model.6/m.0/m/m.1/cv1/act/Sigmoid_output_0: 3c00858b
/model.6/m.0/m/m.1/cv1/act/Mul_output_0: 3c74a816
/model.6/m.0/m/m.1/cv2/conv/Conv_output_0: 3db97402
/model.6/m.0/m/m.1/cv2/act/Sigmoid_output_0: 3c00eda4
/model.6/m.0/m/m.1/cv2/act/Mul_output_0: 3d6745b4
/model.6/m.0/m/m.1/Add_output_0: 3dd0d250
/model.6/m.0/Concat_output_0: 3d650e7b
/model.6/m.0/cv3/conv/Conv_output_0: 3d8fdc25
/model.6/m.0/cv3/act/Sigmoid_output_0: 3c00ea19
/model.6/m.0/cv3/act/Mul_output_0: 3d14e8b2
/model.6/Concat_output_0: 3cd3e499
/model.6/cv2/conv/Conv_output_0: 3d8abf2b
/model.6/cv2/act/Sigmoid_output_0: 3c00c9cd
/model.6/cv2/act/Mul_output_0: 3cba9fb4
/model.7/conv/Conv_output_0: 3da70bcd
/model.7/act/Sigmoid_output_0: 3c00ec64
/model.7/act/Mul_output_0: 3cc0ffeb
/model.8/cv1/conv/Conv_output_0: 3da686de
/model.8/cv1/act/Sigmoid_output_0: 3c011077
/model.8/cv1/act/Mul_output_0: 3ce74eec
/model.8/Split_output_0: 3ce74eec
/model.8/Split_output_1: 3cd456ee
/model.8/m.0/cv1/conv/Conv_output_0: 3d9ac551
/model.8/m.0/cv2/conv/Conv_output_0: 3dbe91e2
/model.8/m.0/cv1/act/Sigmoid_output_0: 3c04d492
/model.8/m.0/cv2/act/Sigmoid_output_0: 3c0197c6
/model.8/m.0/cv1/act/Mul_output_0: 3c99b090
/model.8/m.0/cv2/act/Mul_output_0: 3cc2d65e
/model.8/m.0/m/m.0/cv1/conv/Conv_output_0: 3dc05a0b
/model.8/m.0/m/m.0/cv1/act/Sigmoid_output_0: 3c011153
/model.8/m.0/m/m.0/cv1/act/Mul_output_0: 3ce6b72f
/model.8/m.0/m/m.0/cv2/conv/Conv_output_0: 3dc2556a
/model.8/m.0/m/m.0/cv2/act/Sigmoid_output_0: 3c0417f4
/model.8/m.0/m/m.0/cv2/act/Mul_output_0: 3cff4d90
/model.8/m.0/m/m.0/Add_output_0: 3d9ff691
/model.8/m.0/m/m.1/cv1/conv/Conv_output_0: 3dcd3508
/model.8/m.0/m/m.1/cv1/act/Sigmoid_output_0: 3c031490
/model.8/m.0/m/m.1/cv1/act/Mul_output_0: 3ce8b0f7
/model.8/m.0/m/m.1/cv2/conv/Conv_output_0: 3deab6ed
/model.8/m.0/m/m.1/cv2/act/Sigmoid_output_0: 3c011213
/model.8/m.0/m/m.1/cv2/act/Mul_output_0: 3d915ce1
/model.8/m.0/m/m.1/Add_output_0: 3df154c9
/model.8/m.0/Concat_output_0: 3d90115d
/model.8/m.0/cv3/conv/Conv_output_0: 3db07f39
/model.8/m.0/cv3/act/Sigmoid_output_0: 3c0111b2
/model.8/m.0/cv3/act/Mul_output_0: 3d029e95
/model.8/Concat_output_0: 3d029e95
/model.8/cv2/conv/Conv_output_0: 3db53443
/model.8/cv2/act/Sigmoid_output_0: 3c00ebed
/model.8/cv2/act/Mul_output_0: 3d03283e
/model.9/cv1/conv/Conv_output_0: 3d7b2745
/model.9/m/MaxPool_output_0: 3d7b2745
/model.9/m_1/MaxPool_output_0: 3d7b2745
/model.9/m_2/MaxPool_output_0: 3d7b2745
/model.9/Concat_output_0: 3da55132
/model.9/cv2/conv/Conv_output_0: 3d9ff286
/model.9/cv2/act/Sigmoid_output_0: 3c00715c
/model.9/cv2/act/Mul_output_0: 3c638760
/model.10/cv1/conv/Conv_output_0: 3ddf1852
/model.10/cv1/act/Sigmoid_output_0: 3c011220
/model.10/cv1/act/Mul_output_0: 3d27b795
/model.10/Split_output_0: 3d27b795
/model.10/Split_output_1: 3d278e27
/model.10/m/m.0/attn/qkv/conv/Conv_output_0: 3d80a0b0
/model.10/m/m.0/attn/Reshape_output_0: 3d80a0b0
/model.10/m/m.0/attn/Split_output_0: 3d27aa90
/model.10/m/m.0/attn/Split_output_1: 3db79cc6
/model.10/m/m.0/attn/Split_output_2: 3d83bf45
/model.10/m/m.0/attn/Transpose_output_0: 3d27aa90
/model.10/m/m.0/attn/Reshape_2_output_0: 3d83bf45
/model.10/m/m.0/attn/MatMul_output_0: 3f822597
/model.10/m/m.0/attn/pe/conv/Conv_output_0: 3d62d624
/model.10/m/m.0/attn/Constant_1_output_0_output: 3ab67d3d
ONNXTRT_Broadcast_output: 3ab67d3d
/model.10/m/m.0/attn/Mul_output_0: 3e380e2f
ONNXTRT_flattenTensor_output: 3e380e2f
/model.10/m/m.0/attn/Softmax_output: 3a129afd
/model.10/m/m.0/attn/Softmax_output_0: 3a129afd
/model.10/m/m.0/attn/Transpose_1_output_0: 3a129afd
/model.10/m/m.0/attn/MatMul_1_output_0: 3d7d10fe
/model.10/m/m.0/attn/Reshape_1_output_0: 3d7d10fe
/model.10/m/m.0/attn/Add_output_0: 3d5a620e
/model.10/m/m.0/attn/proj/conv/Conv_output_0: 3d66b60f
/model.10/m/m.0/Add_output_0: 3d99e31e
/model.10/m/m.0/ffn/ffn.0/conv/Conv_output_0: 3d7dd8ac
/model.10/m/m.0/ffn/ffn.0/act/Sigmoid_output_0: 3c0083eb
/model.10/m/m.0/ffn/ffn.0/act/Mul_output_0: 3c896702
/model.10/m/m.0/ffn/ffn.1/conv/Conv_output_0: 3d4789f2
/model.10/m/m.0/Add_1_output_0: 3d973297
/model.10/Concat_output_0: 3d43b54e
/model.10/cv2/conv/Conv_output_0: 3d9f71f4
/model.10/cv2/act/Sigmoid_output_0: 3c00e9b3
/model.10/cv2/act/Mul_output_0: 3cc35a15
/model.11/Resize_output_0: 3cc35a15
/model.12/Concat_output_0: 3cacf4a3
/model.13/cv1/conv/Conv_output_0: 3d7ba867
/model.13/cv1/act/Sigmoid_output_0: 3c008792
/model.13/cv1/act/Mul_output_0: 3ca63d46
/model.13/Split_output_0: 3cd387d3
/model.13/Split_output_1: 3c891e92
/model.13/m.0/cv1/conv/Conv_output_0: 3d6d0489
/model.13/m.0/cv1/act/Sigmoid_output_0: 3c006409
/model.13/m.0/cv1/act/Mul_output_0: 3ca57a0c
/model.13/m.0/cv2/conv/Conv_output_0: 3da3cd01
/model.13/m.0/cv2/act/Sigmoid_output_0: 3c0312ae
/model.13/m.0/cv2/act/Mul_output_0: 3d039a93
/model.13/m.0/Add_output_0: 3d643cb3
/model.13/Concat_output_0: 3d038fe5
/model.13/cv2/conv/Conv_output_0: 3d6d5e36
/model.13/cv2/act/Sigmoid_output_0: 3c009046
/model.13/cv2/act/Mul_output_0: 3c805398
/model.14/Resize_output_0: 3c805398
/model.15/Concat_output_0: 3c7fe5e2
/model.16/cv1/conv/Conv_output_0: 3d6e7391
/model.16/cv1/act/Sigmoid_output_0: 3c00356a
/model.16/cv1/act/Mul_output_0: 3c9ac3c3
/model.16/Split_output_0: 3c9ac3c3
/model.16/Split_output_1: 3ca6110c
/model.16/m.0/cv1/conv/Conv_output_0: 3d3610d4
/model.16/m.0/cv1/act/Sigmoid_output_0: 3c0086a6
/model.16/m.0/cv1/act/Mul_output_0: 3cb111e9
/model.16/m.0/cv2/conv/Conv_output_0: 3d89f13a
/model.16/m.0/cv2/act/Sigmoid_output_0: 3c008ef9
/model.16/m.0/cv2/act/Mul_output_0: 3cd3e9bc
/model.16/m.0/Add_output_0: 3d50de36
/model.16/Concat_output_0: 3cd32226
/model.16/cv2/conv/Conv_output_0: 3d63d29d
/model.16/cv2/act/Sigmoid_output_0: 3c00a84d
/model.16/cv2/act/Mul_output_0: 3cc0dd68
/model.17/conv/Conv_output_0: 3d69ca37
/model.23/cv2.0/cv2.0.0/conv/Conv_output_0: 3d8e71d8
/model.23/cv3.0/cv3.0.0/cv3.0.0.0/conv/Conv_output_0: 3d864616
/model.17/act/Sigmoid_output_0: 3c00bc35
/model.23/cv2.0/cv2.0.0/act/Sigmoid_output_0: 3c00bf12
/model.23/cv3.0/cv3.0.0/cv3.0.0.0/act/Sigmoid_output_0: 3c00aaa6
/model.17/act/Mul_output_0: 3c5b6cb8
/model.23/cv2.0/cv2.0.0/act/Mul_output_0: 3ceb4683
/model.23/cv3.0/cv3.0.0/cv3.0.0.0/act/Mul_output_0: 3d11f707
/model.18/Concat_output_0: 3c5b6cb8
/model.23/cv2.0/cv2.0.1/conv/Conv_output_0: 3e484a11
/model.23/cv3.0/cv3.0.0/cv3.0.0.1/conv/Conv_output_0: 3d5f6e97
/model.19/cv1/conv/Conv_output_0: 3d7d9307
/model.23/cv2.0/cv2.0.1/act/Sigmoid_output_0: 3c010a14
/model.23/cv3.0/cv3.0.0/cv3.0.0.1/act/Sigmoid_output_0: 3c00ae8f
/model.19/cv1/act/Sigmoid_output_0: 3c00797d
/model.23/cv2.0/cv2.0.1/act/Mul_output_0: 3dce27dd
/model.23/cv3.0/cv3.0.0/cv3.0.0.1/act/Mul_output_0: 3d126f58
/model.19/cv1/act/Mul_output_0: 3c909393
/model.23/cv2.0/cv2.0.2/Conv_output_0: 3e8a6b25
/model.23/cv3.0/cv3.0.1/cv3.0.1.0/conv/Conv_output_0: 3d88737a
/model.19/Split_output_0: 3cc0b3a8
/model.19/Split_output_1: 3c87b81e
/model.23/Reshape_output_0: 3e8a6b25
/model.23/cv3.0/cv3.0.1/cv3.0.1.0/act/Sigmoid_output_0: 3c073d74
/model.19/m.0/cv1/conv/Conv_output_0: 3d810a82
/model.23/cv3.0/cv3.0.1/cv3.0.1.0/act/Mul_output_0: 3d64f021
/model.19/m.0/cv1/act/Sigmoid_output_0: 3c00a591
/model.23/cv3.0/cv3.0.1/cv3.0.1.1/conv/Conv_output_0: 3d860e55
/model.19/m.0/cv1/act/Mul_output_0: 3cb11259
/model.23/cv3.0/cv3.0.1/cv3.0.1.1/act/Sigmoid_output_0: 3c00f0a3
/model.19/m.0/cv2/conv/Conv_output_0: 3db0ed58
/model.23/cv3.0/cv3.0.1/cv3.0.1.1/act/Mul_output_0: 3ce605b2
/model.19/m.0/cv2/act/Sigmoid_output_0: 3c011220
/model.23/cv3.0/cv3.0.2/Conv_output_0: 3e6cd04a
/model.19/m.0/cv2/act/Mul_output_0: 3d26c64a
/model.23/Reshape_3_output_0: 3e6cd04a
/model.19/m.0/Add_output_0: 3da218aa
/model.19/Concat_output_0: 3cd21a9f
/model.19/cv2/conv/Conv_output_0: 3d8645e3
/model.19/cv2/act/Sigmoid_output_0: 3c00cc5e
/model.19/cv2/act/Mul_output_0: 3cc1e8f9
/model.20/conv/Conv_output_0: 3d80eb5f
/model.23/cv2.1/cv2.1.0/conv/Conv_output_0: 3dd8e306
/model.23/cv3.1/cv3.1.0/cv3.1.0.0/conv/Conv_output_0: 3daa8fcb
/model.20/act/Sigmoid_output_0: 3c00ccd8
/model.23/cv2.1/cv2.1.0/act/Sigmoid_output_0: 3c011162
/model.23/cv3.1/cv3.1.0/cv3.1.0.0/act/Sigmoid_output_0: 3c053a61
/model.20/act/Mul_output_0: 3cc37946
/model.23/cv2.1/cv2.1.0/act/Mul_output_0: 3d25e38b
/model.23/cv3.1/cv3.1.0/cv3.1.0.0/act/Mul_output_0: 3d634c66
/model.21/Concat_output_0: 3cc37946
/model.23/cv2.1/cv2.1.1/conv/Conv_output_0: 3e2866d0
/model.23/cv3.1/cv3.1.0/cv3.1.0.1/conv/Conv_output_0: 3d71c83e
/model.22/cv1/conv/Conv_output_0: 3d96999d
/model.23/cv2.1/cv2.1.1/act/Sigmoid_output_0: 3c010a14
/model.23/cv3.1/cv3.1.0/cv3.1.0.1/act/Sigmoid_output_0: 3c00e9c9
/model.22/cv1/act/Sigmoid_output_0: 3c010d21
/model.23/cv2.1/cv2.1.1/act/Mul_output_0: 3dca79b1
/model.23/cv3.1/cv3.1.0/cv3.1.0.1/act/Mul_output_0: 3d0243fd
/model.22/cv1/act/Mul_output_0: 3cc313c3
/model.23/cv2.1/cv2.1.2/Conv_output_0: 3e85e4d2
/model.23/cv3.1/cv3.1.1/cv3.1.1.0/conv/Conv_output_0: 3daa5142
/model.22/Split_output_0: 3c78b65b
/model.22/Split_output_1: 3cc313c3
/model.23/Reshape_1_output_0: 3e85e4d2
/model.23/cv3.1/cv3.1.1/cv3.1.1.0/act/Sigmoid_output_0: 3c0f6d8c
/model.22/m.0/cv1/conv/Conv_output_0: 3d122f45
/model.22/m.0/cv2/conv/Conv_output_0: 3d7a06b3
/model.23/cv3.1/cv3.1.1/cv3.1.1.0/act/Mul_output_0: 3d61e805
/model.22/m.0/cv1/act/Sigmoid_output_0: 3bf23be6
/model.22/m.0/cv2/act/Sigmoid_output_0: 3c00291f
/model.23/cv3.1/cv3.1.1/cv3.1.1.1/conv/Conv_output_0: 3d9d3288
/model.22/m.0/cv1/act/Mul_output_0: 3c517cb7
/model.22/m.0/cv2/act/Mul_output_0: 3c90f336
/model.23/cv3.1/cv3.1.1/cv3.1.1.1/act/Sigmoid_output_0: 3c0111eb
/model.22/m.0/m/m.0/cv1/conv/Conv_output_0: 3d8ef2e2
/model.23/cv3.1/cv3.1.1/cv3.1.1.1/act/Mul_output_0: 3d2469ff
/model.22/m.0/m/m.0/cv1/act/Sigmoid_output_0: 3c00ecfd
/model.23/cv3.1/cv3.1.2/Conv_output_0: 3e96454d
/model.22/m.0/m/m.0/cv1/act/Mul_output_0: 3cc3902a
/model.23/Reshape_4_output_0: 3e96454d
/model.22/m.0/m/m.0/cv2/conv/Conv_output_0: 3d90bf11
/model.22/m.0/m/m.0/cv2/act/Sigmoid_output_0: 3c010e77
/model.22/m.0/m/m.0/cv2/act/Mul_output_0: 3d029bc5
/model.22/m.0/m/m.0/Add_output_0: 3d7acc9a
/model.22/m.0/m/m.1/cv1/conv/Conv_output_0: 3d8e8deb
/model.22/m.0/m/m.1/cv1/act/Sigmoid_output_0: 3c00ea4b
/model.22/m.0/m/m.1/cv1/act/Mul_output_0: 3c9aefd0
/model.22/m.0/m/m.1/cv2/conv/Conv_output_0: 3df5e9a8
/model.22/m.0/m/m.1/cv2/act/Sigmoid_output_0: 3c011222
/model.22/m.0/m/m.1/cv2/act/Mul_output_0: 3d6e60df
/model.22/m.0/m/m.1/Add_output_0: 3dbe6c79
/model.22/m.0/Concat_output_0: 3dbe6c79
/model.22/m.0/cv3/conv/Conv_output_0: 3dc32824
/model.22/m.0/cv3/act/Sigmoid_output_0: 3c00efc4
/model.22/m.0/cv3/act/Mul_output_0: 3d11f494
/model.22/Concat_output_0: 3d11f494
/model.22/cv2/conv/Conv_output_0: 3dac4121
/model.22/cv2/act/Sigmoid_output_0: 3c011200
/model.22/cv2/act/Mul_output_0: 3d2aa63b
/model.23/cv2.2/cv2.2.0/conv/Conv_output_0: 3dca63f6
/model.23/cv3.2/cv3.2.0/cv3.2.0.0/conv/Conv_output_0: 3da37ce5
/model.23/cv2.2/cv2.2.0/act/Sigmoid_output_0: 3c063bb0
/model.23/cv3.2/cv3.2.0/cv3.2.0.0/act/Sigmoid_output_0: 3c010a14
/model.23/cv2.2/cv2.2.0/act/Mul_output_0: 3d2613b9
/model.23/cv3.2/cv3.2.0/cv3.2.0.0/act/Mul_output_0: 3d2f1ae0
/model.23/cv2.2/cv2.2.1/conv/Conv_output_0: 3e2f2607
/model.23/cv3.2/cv3.2.0/cv3.2.0.1/conv/Conv_output_0: 3d995452
/model.23/cv2.2/cv2.2.1/act/Sigmoid_output_0: 3c010a14
/model.23/cv3.2/cv3.2.0/cv3.2.0.1/act/Sigmoid_output_0: 3c03ff01
/model.23/cv2.2/cv2.2.1/act/Mul_output_0: 3dc5c89a
/model.23/cv3.2/cv3.2.0/cv3.2.0.1/act/Mul_output_0: 3d25580d
/model.23/cv2.2/cv2.2.2/Conv_output_0: 3e4df368
/model.23/cv3.2/cv3.2.1/cv3.2.1.0/conv/Conv_output_0: 3dbd7873
/model.23/Reshape_2_output_0: 3e4df368
/model.23/cv3.2/cv3.2.1/cv3.2.1.0/act/Sigmoid_output_0: 3c010a14
/model.23/Concat_output_0: 3e871f08
/model.23/cv3.2/cv3.2.1/cv3.2.1.0/act/Mul_output_0: 3d8fc00a
/model.23/cv3.2/cv3.2.1/cv3.2.1.1/conv/Conv_output_0: 3e04dd9b
/model.23/dfl/Reshape_output_0: 3e871f08
/model.23/cv3.2/cv3.2.1/cv3.2.1.1/act/Sigmoid_output_0: 3c010a14
/model.23/dfl/Transpose_output_0: 3e871f08
/model.23/cv3.2/cv3.2.1/cv3.2.1.1/act/Mul_output_0: 3d6a359a
ONNXTRT_flattenTensor_43_output: 3e871f08
/model.23/dfl/Softmax_output: 3bc0ceb8
/model.23/dfl/Softmax_output_0: 3bc0ceb8
/model.23/cv3.2/cv3.2.2/Conv_output_0: 3f011465
/model.23/dfl/Transpose_1_output_0: 3bc0ceb8
/model.23/Reshape_5_output_0: 3f011465
/model.23/dfl/conv/Conv_output_0: 3df1ee4a
/model.23/Concat_1_output_0: 3eb2c9a4
/model.23/dfl/Reshape_1_output_0: 3df1ee4a
/model.23/Sigmoid_output_0: 3be1acb0
output0: 41234473
/model.23/Slice_1_output_0: 3e12d2c5
ONNXTRT_Broadcast_112_output: 3e810a14
/model.23/Add_2_output_0: 4020c1bc
/model.23/Concat_2_output_0: 3facd6cb
/model.23/Constant_13_output_0_output: 3fa0cb8f
ONNXTRT_Broadcast_110_output: 3c810a14
/model.23/Add_1_output_0: 3fa1bd9e
/model.23/Constant_15_output_0_output: 3e810a14
/model.23/Sub_output_0: 3fa02914
/model.23/Constant_12_output_0_output: 3fa0cb8f
/model.23/Mul_2_output_0: 41234473
/model.23/Slice_output_0: 3df1b804
/model.23/Div_1_output_0: 3fa0c1bc
/model.23/Constant_14_output_0_output: 3c810a14
/model.23/Sub_1_output_0: 3e73be80
